
#ifdef __has_attribute
#define HAVE_ATTRIBUTE(x) __has_attribute(x)
#else
#define HAVE_ATTRIBUTE(x) 0
#endif
#if HAVE_ATTRIBUTE(aligned) || (defined(__GNUC__) && !defined(__clang__))
#define DATA_ALIGN_ATTRIBUTE __attribute__((aligned(4)))
#else
#define DATA_ALIGN_ATTRIBUTE
#endif

const unsigned char model_data[] DATA_ALIGN_ATTRIBUTE = {0x1c, 0x00, 0x00, 0x00, 0x54, 0x46, 0x4c, 0x33, 0x00, 0x00, 0x12, 0x00, 0x1c, 0x00, 0x04, 0x00, 0x08, 0x00, 0x0c, 0x00, 0x10, 0x00, 0x14, 0x00, 0x00, 0x00, 0x18, 0x00, 0x12, 0x00, 0x00, 0x00, 0x03, 0x00, 0x00, 0x00, 0x00, 0x18, 0x00, 0x00, 0x0c, 0x0f, 0x00, 0x00, 0xf4, 0x0e, 0x00, 0x00, 0x3c, 0x00, 0x00, 0x00, 0x04, 0x00, 0x00, 0x00, 0x01, 0x00, 0x00, 0x00, 0x0c, 0x00, 0x00, 0x00, 0x08, 0x00, 0x0c, 0x00, 0x04, 0x00, 0x08, 0x00, 0x08, 0x00, 0x00, 0x00, 0x08, 0x00, 0x00, 0x00, 0x10, 0x00, 0x00, 0x00, 0x13, 0x00, 0x00, 0x00, 0x6d, 0x69, 0x6e, 0x5f, 0x72, 0x75, 0x6e, 0x74, 0x69, 0x6d, 0x65, 0x5f, 0x76, 0x65, 0x72, 0x73, 0x69, 0x6f, 0x6e, 0x00, 0x11, 0x00, 0x00, 0x00, 0xac, 0x0e, 0x00, 0x00, 0x98, 0x0e, 0x00, 0x00, 0x5c, 0x0e, 0x00, 0x00, 0x38, 0x0e, 0x00, 0x00, 0x14, 0x0e, 0x00, 0x00, 0xf0, 0x0d, 0x00, 0x00, 0x5c, 0x09, 0x00, 0x00, 0x08, 0x05, 0x00, 0x00, 0xb4, 0x00, 0x00, 0x00, 0xa8, 0x00, 0x00, 0x00, 0x94, 0x00, 0x00, 0x00, 0x80, 0x00, 0x00, 0x00, 0x6c, 0x00, 0x00, 0x00, 0x58, 0x00, 0x00, 0x00, 0x44, 0x00, 0x00, 0x00, 0x30, 0x00, 0x00, 0x00, 0x04, 0x00, 0x00, 0x00, 0x0a, 0xf1, 0xff, 0xff, 0x04, 0x00, 0x00, 0x00, 0x10, 0x00, 0x00, 0x00, 0x31, 0x2e, 0x35, 0x2e, 0x30, 0x00, 0x00, 0x00, 0x00, 0x00, 0x00, 0x00, 0x00, 0x00, 0x00, 0x00, 0x00, 0x00, 0x00, 0x00, 0x00, 0x00, 0x00, 0x00, 0x00, 0x00, 0x00, 0x00, 0xe8, 0xe8, 0xff, 0xff, 0x00, 0x00, 0x00, 0x00, 0x00, 0x00, 0x00, 0x00, 0x00, 0x00, 0x00, 0x00, 0xf8, 0xe8, 0xff, 0xff, 0x00, 0x00, 0x00, 0x00, 0x00, 0x00, 0x00, 0x00, 0x00, 0x00, 0x00, 0x00, 0x08, 0xe9, 0xff, 0xff, 0x00, 0x00, 0x00, 0x00, 0x00, 0x00, 0x00, 0x00, 0x00, 0x00, 0x00, 0x00, 0x18, 0xe9, 0xff, 0xff, 0x00, 0x00, 0x00, 0x00, 0x00, 0x00, 0x00, 0x00, 0x00, 0x00, 0x00, 0x00, 0x28, 0xe9, 0xff, 0xff, 0x00, 0x00, 0x00, 0x00, 0x00, 0x00, 0x00, 0x00, 0x00, 0x00, 0x00, 0x00, 0x38, 0xe9, 0xff, 0xff, 0x00, 0x00, 0x00, 0x00, 0x00, 0x00, 0x00, 0x00, 0x00, 0x00, 0x00, 0x00, 0x48, 0xe9, 0xff, 0xff, 0x00, 0x00, 0x00, 0x00, 0x9a, 0xf1, 0xff, 0xff, 0x04, 0x00, 0x00, 0x00, 0x38, 0x04, 0x00, 0x00, 0xa2, 0xd8, 0x10, 0xbe, 0x59, 0x5f, 0x13, 0x3e, 0x81, 0xff, 0x43, 0x3e, 0xc1, 0xbe, 0xe7, 0x3d, 0x1e, 0x17, 0xf9, 0xbd, 0x55, 0x34, 0x12, 0xbd, 0x1e, 0x36, 0x57, 0x3c, 0x10, 0x99, 0x4d, 0xbd, 0xec, 0xf3, 0xb5, 0x3d, 0xc6, 0xe1, 0x2c, 0x3e, 0x8b, 0x3e, 0x3f, 0x3e, 0xea, 0xa4, 0x8c, 0xbd, 0xdd, 0x59, 0x1e, 0x3d, 0x2a, 0xed, 0x0a, 0x3d, 0x88, 0xbf, 0x29, 0x3e, 0x55, 0x53, 0x0d, 0xbe, 0x82, 0x66, 0xdb, 0xbd, 0xb7, 0xe1, 0xa2, 0xbc, 0xd4, 0xfe, 0x43, 0x3d, 0x16, 0x7a, 0x8c, 0xbc, 0xbc, 0xf6, 0x5e, 0x3d, 0x18, 0xb1, 0x43, 0xbe, 0xaa, 0xae, 0xd9, 0x3d, 0x59, 0x07, 0xad, 0x3d, 0x60, 0x1f, 0x2b, 0xbd, 0xf8, 0x4c, 0x16, 0xbd, 0xc4, 0x90, 0x3e, 0x3e, 0x6a, 0xdf, 0xb5, 0xbd, 0xbb, 0x9e, 0x01, 0xbe, 0xec, 0x4e, 0x4e, 0x3e, 0x44, 0x1e, 0x60, 0x3e, 0xa8, 0xc4, 0x05, 0x3e, 0x7d, 0x67, 0x0d, 0x3e, 0xac, 0x2a, 0xd6, 0x3d, 0x46, 0x6e, 0x04, 0xbe, 0xf4, 0xc0, 0x24, 0xbe, 0x95, 0xd5, 0x1e, 0x3e, 0x1f, 0xf5, 0x7a, 0xbd, 0xb8, 0x11, 0xcd, 0xbc, 0x47, 0xf5, 0x34, 0x3e, 0xdd, 0xd6, 0xf1, 0xbd, 0x2f, 0x48, 0x91, 0x3d, 0xd6, 0x18, 0xb1, 0xbd, 0x2c, 0x28, 0x2b, 0xbe, 0xdc, 0xf0, 0x37, 0xbe, 0x1b, 0x6b, 0xa2, 0x3d, 0x1b, 0xfb, 0x3f, 0xbd, 0x97, 0x81, 0x93, 0xbd, 0xa8, 0x43, 0x64, 0xbe, 0xea, 0xf2, 0x38, 0x3e, 0xc0, 0x76, 0x2b, 0x3e, 0x15, 0x79, 0xec, 0xbc, 0x73, 0xa4, 0x25, 0xbe, 0x08, 0xaa, 0x1f, 0x3e, 0x4f, 0x52, 0x00, 0x3c, 0x4e, 0x0c, 0x98, 0x3b, 0xb9, 0x3e, 0x88, 0xbd, 0x0b, 0x76, 0x0b, 0xbe, 0x43, 0x09, 0x09, 0x3b, 0xec, 0xfb, 0x67, 0xbd, 0x01, 0x15, 0xdd, 0x3c, 0xfa, 0x3d, 0x12, 0x3d, 0x45, 0xde, 0x36, 0x3d, 0xce, 0x59, 0x20, 0xbd, 0x4a, 0x5c, 0x2c, 0x3d, 0x0b, 0x91, 0x98, 0xbc, 0x1b, 0xcc, 0xa3, 0xbd, 0x8f, 0xfc, 0x20, 0x3e, 0x4f, 0xd4, 0x4e, 0xbc, 0xe1, 0x93, 0x22, 0xbe, 0x8e, 0xbe, 0x5d, 0xbe, 0xdb, 0x10, 0x5c, 0xbe, 0x53, 0x92, 0x37, 0x3e, 0x5c, 0xd8, 0x32, 0x3e, 0x36, 0x40, 0x04, 0x3e, 0x43, 0x50, 0x32, 0xbe, 0x2a, 0xb9, 0xf6, 0xbd, 0x06, 0x15, 0x2e, 0xbd, 0x8e, 0xcb, 0x2c, 0xbe, 0xa8, 0x5d, 0xb8, 0xbd, 0x15, 0x09, 0x28, 0xbd, 0xcf, 0xa1, 0xfa, 0xbc, 0xaf, 0x72, 0xb4, 0x3d, 0x6f, 0x8c, 0x8e, 0xbd, 0xff, 0xed, 0xf8, 0x3c, 0xbd, 0x38, 0x3b, 0xbc, 0x3b, 0x65, 0x43, 0xbe, 0x21, 0x4b, 0x2b, 0x3e, 0xa6, 0xe2, 0x35, 0xbe, 0x08, 0x0a, 0xcc, 0x3d, 0xfc, 0xdd, 0xef, 0x3c, 0x77, 0x85, 0x3b, 0x3e, 0x0c, 0xec, 0xb4, 0x3d, 0xc9, 0x94, 0x92, 0xbd, 0xd8, 0x91, 0x58, 0x3e, 0x19, 0x88, 0x12, 0x3d, 0xa5, 0x12, 0x79, 0x3d, 0xfd, 0x8e, 0x07, 0xbb, 0xc8, 0x5b, 0xf4, 0x3d, 0x29, 0x6a, 0xc8, 0x3d, 0x84, 0x85, 0x7c, 0x3c, 0xdc, 0x1a, 0x67, 0x3e, 0x1e, 0x51, 0x3a, 0xbe, 0xdb, 0x22, 0x2a, 0x3d, 0xc0, 0x17, 0x3e, 0xbe, 0x61, 0x3b, 0x7a, 0xbe, 0xee, 0x8b, 0x5d, 0x3d, 0x00, 0xa3, 0x30, 0xbe, 0xbc, 0xbd, 0x1f, 0xbd, 0xe3, 0xb1, 0x03, 0xbe, 0x24, 0xb9, 0x54, 0xbe, 0x4a, 0xf2, 0x22, 0xbd, 0x28, 0x70, 0x10, 0xbe, 0x7e, 0x2a, 0x30, 0x3e, 0x34, 0xd9, 0xdf, 0xbc, 0xf8, 0x7d, 0x2a, 0xbd, 0x2c, 0x58, 0x64, 0x3e, 0xed, 0x21, 0x3e, 0x3d, 0x95, 0x1f, 0x1d, 0x3e, 0x85, 0x05, 0x13, 0xbe, 0x36, 0xd6, 0x3d, 0x39, 0xa1, 0xf0, 0x1f, 0xbe, 0x38, 0x9d, 0x3d, 0xbe, 0x84, 0xc9, 0x2c, 0xbe, 0x1f, 0xde, 0xb6, 0xbd, 0x1d, 0x76, 0xfc, 0xbd, 0x18, 0x74, 0x06, 0xbe, 0xfe, 0x80, 0x11, 0xbe, 0x9d, 0x7d, 0xb4, 0x3d, 0x0a, 0xc6, 0x68, 0xbe, 0xe7, 0x3f, 0x0c, 0x3e, 0x7c, 0xea, 0x06, 0xbe, 0x9a, 0xdd, 0x19, 0xbe, 0xc4, 0x05, 0x01, 0xbc, 0xe2, 0xb6, 0x81, 0x3e, 0x5b, 0x8f, 0x2e, 0x3d, 0x25, 0xfe, 0x2c, 0x3e, 0x9c, 0x2d, 0x6d, 0x3e, 0xf5, 0x99, 0x20, 0x3e, 0x39, 0x7b, 0xfb, 0x3d, 0x20, 0x85, 0xd6, 0xbd, 0xd2, 0x32, 0xd7, 0x3c, 0xad, 0x12, 0x43, 0x3e, 0xb9, 0x4b, 0x0a, 0xbe, 0x01, 0x0e, 0x51, 0xbc, 0xf0, 0xfd, 0x2a, 0x3e, 0x18, 0x10, 0x4d, 0xbe, 0x31, 0xdc, 0x3f, 0x3e, 0x5a, 0x0f, 0x04, 0xbd, 0x2b, 0x07, 0x39, 0x3e, 0x89, 0x72, 0x02, 0xbe, 0xce, 0xdb, 0xbb, 0xbd, 0x5f, 0x84, 0xbb, 0x3c, 0x3e, 0x56, 0x76, 0x3e, 0xec, 0xb6, 0xc7, 0xbd, 0x17, 0xe1, 0x35, 0xbe, 0x0e, 0x97, 0x0d, 0xbd, 0x93, 0x4b, 0x74, 0x3d, 0x6f, 0xd5, 0x03, 0x3e, 0xfe, 0xa4, 0xf6, 0xbd, 0x72, 0xc0, 0x42, 0x3e, 0x95, 0x23, 0x3a, 0x3e, 0xef, 0xec, 0x6c, 0xbe, 0x49, 0x72, 0xd5, 0xbd, 0x6e, 0x46, 0x88, 0xbd, 0xaa, 0xc9, 0x17, 0xbd, 0x45, 0xac, 0xd2, 0x3d, 0x6c, 0xd7, 0x17, 0xbd, 0x67, 0xd2, 0x81, 0xbb, 0x74, 0x8e, 0x5c, 0x3e, 0x16, 0x8e, 0x39, 0xbd, 0x16, 0xe5, 0x71, 0xbc, 0xff, 0xbe, 0x47, 0x3e, 0x87, 0x6f, 0x22, 0x3e, 0x5b, 0xa0, 0x20, 0xbd, 0x28, 0x51, 0x4a, 0xbe, 0x3c, 0xbe, 0x13, 0xbd, 0xe8, 0x86, 0x1d, 0xbd, 0x5d, 0xe3, 0x65, 0xbe, 0xfb, 0x0a, 0x3b, 0x3e, 0x97, 0xb6, 0x18, 0x3c, 0x96, 0x11, 0xd1, 0xbd, 0xfe, 0x62, 0x29, 0xbe, 0x05, 0x58, 0x30, 0xbe, 0xf9, 0xc1, 0x3a, 0x3e, 0xee, 0x13, 0x95, 0x3d, 0x68, 0xbd, 0x23, 0xbd, 0x04, 0x2a, 0x66, 0x3d, 0x67, 0x85, 0xf8, 0xbc, 0x57, 0xa1, 0x5d, 0xbe, 0xe9, 0x92, 0x86, 0xbd, 0xf1, 0xcb, 0x17, 0x3d, 0x78, 0xed, 0x56, 0xbc, 0x6e, 0xec, 0x60, 0x3e, 0xd6, 0x5c, 0x75, 0x3e, 0xe6, 0xd7, 0xc6, 0xbd, 0x9e, 0x4f, 0x34, 0xbe, 0xfe, 0x25, 0x0b, 0x3e, 0xf0, 0xd1, 0x78, 0x3b, 0xf8, 0xe3, 0x09, 0x3e, 0x21, 0xd0, 0x19, 0x3e, 0x3a, 0x40, 0x0a, 0x3e, 0xb5, 0x54, 0x66, 0x3e, 0xcf, 0xde, 0xdf, 0x3d, 0x86, 0xa2, 0xf4, 0xbc, 0xa3, 0xfc, 0x80, 0x3d, 0x85, 0x13, 0x4b, 0xbe, 0xf5, 0xff, 0x08, 0xbe, 0x8f, 0x22, 0xb4, 0xbc, 0x65, 0x3c, 0x19, 0x3c, 0xed, 0xec, 0x4b, 0x3e, 0xc5, 0xbe, 0x7d, 0xbc, 0x1b, 0x47, 0xb6, 0x3c, 0x6e, 0xec, 0x13, 0xbd, 0x19, 0x17, 0x35, 0xbe, 0xda, 0x0f, 0x8f, 0xbd, 0x2d, 0x17, 0x59, 0xbe, 0xf0, 0x22, 0xdf, 0x3d, 0x83, 0x41, 0x33, 0x3e, 0xfb, 0x5e, 0x24, 0xbd, 0x72, 0xe0, 0x87, 0x3d, 0xb6, 0xa9, 0x0b, 0xbe, 0x15, 0xd9, 0xd8, 0x3d, 0xed, 0xda, 0x3f, 0x3e, 0x88, 0xe6, 0x79, 0x3e, 0x92, 0xf3, 0x16, 0xbc, 0xe4, 0xf2, 0x58, 0xbc, 0x4e, 0x56, 0xcb, 0x3c, 0x25, 0x95, 0x96, 0xbd, 0x85, 0x5f, 0x30, 0xbd, 0x62, 0x09, 0x85, 0xbd, 0x77, 0xf0, 0x2b, 0xbe, 0x0e, 0x25, 0x50, 0x3e, 0x6b, 0xf1, 0xfc, 0x3d, 0x0a, 0xaa, 0x2c, 0x3e, 0x71, 0x7e, 0xeb, 0x3d, 0x09, 0x79, 0x23, 0x3e, 0x60, 0x42, 0x79, 0xbd, 0xe9, 0x74, 0x5e, 0xbe, 0x39, 0x1b, 0x13, 0x3e, 0xc1, 0x21, 0x08, 0xbe, 0x5c, 0xb2, 0x2e, 0xbe, 0x34, 0xf0, 0x35, 0x3e, 0x22, 0x82, 0x3a, 0x3e, 0xab, 0xcf, 0x60, 0x3e, 0xbe, 0x3c, 0x02, 0xbc, 0x33, 0xb5, 0x51, 0xbd, 0x82, 0x3c, 0x3c, 0x3e, 0x29, 0xca, 0xfd, 0x3c, 0xa3, 0xb8, 0x30, 0x3e, 0xcb, 0x92, 0xf9, 0x3d, 0x71, 0x36, 0x11, 0xbe, 0xcc, 0x52, 0x6a, 0xbd, 0xab, 0x48, 0xaf, 0xbd, 0xba, 0xa0, 0x0d, 0x3d, 0x11, 0x24, 0x87, 0x3d, 0x25, 0x64, 0xf1, 0x3d, 0xec, 0x90, 0x0a, 0x3e, 0xb2, 0xc3, 0x05, 0xbd, 0x07, 0x5a, 0x39, 0xbe, 0x1a, 0x73, 0x42, 0x3e, 0x7f, 0x7f, 0xd8, 0x3d, 0x8b, 0xa0, 0xe9, 0xbc, 0x14, 0x96, 0x1a, 0x3e, 0x38, 0xcd, 0x86, 0x3d, 0x35, 0xfa, 0x3b, 0x3e, 0xb0, 0x5c, 0x02, 0x3e, 0xfb, 0xfd, 0x5d, 0xbd, 0xc6, 0x4a, 0x1d, 0xbd, 0xbc, 0xf4, 0xfd, 0x3b, 0x00, 0x00, 0x00, 0x00, 0x00, 0x00, 0x00, 0x00, 0x00, 0x00, 0x00, 0x00, 0xea, 0xf5, 0xff, 0xff, 0x04, 0x00, 0x00, 0x00, 0x38, 0x04, 0x00, 0x00, 0x75, 0xfd, 0x2c, 0xbb, 0x97, 0x6f, 0x49, 0x3e, 0x48, 0x88, 0x0b, 0x3e, 0x2c, 0x95, 0x89, 0xbd, 0x0c, 0xa9, 0x55, 0xbd, 0xf8, 0x9e, 0x90, 0x3d, 0xd0, 0x6c, 0xba, 0x3d, 0x9a, 0x90, 0x1f, 0xbd, 0x02, 0xeb, 0x08, 0x3e, 0x3d, 0x26, 0x49, 0xbd, 0xa5, 0x33, 0x81, 0x3c, 0xd8, 0xed, 0x1e, 0xbe, 0x56, 0x2d, 0x69, 0x3d, 0x99, 0x4b, 0x58, 0xbe, 0xc3, 0xcf, 0x06, 0x3e, 0xa5, 0x41, 0x1e, 0x3e, 0x95, 0x2d, 0x72, 0xbe, 0x6f, 0x76, 0x8b, 0x3d, 0x3f, 0xdf, 0x2c, 0x3e, 0xe8, 0x69, 0xa1, 0xbd, 0xa7, 0xf1, 0xf6, 0xbc, 0x3c, 0xfe, 0x52, 0xbe, 0xb5, 0xf5, 0x70, 0x3d, 0x42, 0x71, 0x32, 0xbc, 0x1c, 0xf3, 0x6b, 0xbe, 0x26, 0x79, 0xd5, 0x3c, 0xc0, 0x08, 0xe0, 0x3d, 0xc0, 0x23, 0x27, 0x3d, 0x9a, 0x49, 0x9f, 0x3d, 0x09, 0xd6, 0x13, 0x3e, 0x89, 0xb5, 0xfa, 0x3d, 0x1d, 0x6b, 0xae, 0x3d, 0x1b, 0x30, 0xd7, 0xbc, 0xf0, 0xcf, 0x48, 0xbe, 0x79, 0x5a, 0x9f, 0xbd, 0x0a, 0x48, 0x25, 0x3e, 0x3d, 0x3d, 0x35, 0xbe, 0xe8, 0xfa, 0x72, 0xbe, 0xaa, 0xa0, 0x4a, 0xbe, 0xaa, 0x7f, 0xee, 0x3d, 0x79, 0x5e, 0xeb, 0xbd, 0xda, 0x2f, 0x50, 0xbe, 0xc4, 0x60, 0x6b, 0xbd, 0xdc, 0xcf, 0x14, 0xbe, 0xce, 0x55, 0x2c, 0xbd, 0x5b, 0xdf, 0x3d, 0x3e, 0x2a, 0xc5, 0x6a, 0xbe, 0xa4, 0x36, 0x56, 0x3d, 0xd5, 0x69, 0x80, 0xbc, 0x45, 0x35, 0xd7, 0x3d, 0xb4, 0x91, 0xb4, 0x3d, 0x1d, 0x47, 0x42, 0xbd, 0xb6, 0x81, 0xde, 0xbd, 0x73, 0xf6, 0x97, 0xbd, 0x07, 0xb4, 0x5f, 0xbe, 0xa4, 0xa5, 0xe4, 0xbd, 0x62, 0x2c, 0x70, 0xbe, 0x47, 0xc0, 0xcb, 0xbd, 0x46, 0x3a, 0x4f, 0xbd, 0xd5, 0x89, 0xde, 0x3d, 0x43, 0xe6, 0x32, 0x3e, 0x26, 0x97, 0x90, 0x3d, 0xb7, 0x4b, 0x00, 0x3e, 0x19, 0xbb, 0x43, 0x3e, 0xe0, 0x76, 0xa1, 0xbc, 0xdf, 0x7f, 0x66, 0xbe, 0x7b, 0x00, 0x77, 0xba, 0xe2, 0x88, 0x05, 0x3e, 0xf8, 0xde, 0x35, 0xbe, 0xf3, 0x1e, 0x34, 0x3e, 0x88, 0x4a, 0xd0, 0xbd, 0xce, 0xe5, 0x5d, 0x3e, 0xd1, 0x3f, 0x60, 0xbe, 0xdc, 0xd0, 0x2b, 0x3e, 0xea, 0xc1, 0x4b, 0xbe, 0x75, 0xc3, 0x49, 0x3d, 0xf3, 0x94, 0x50, 0x3e, 0x28, 0xab, 0x30, 0xbe, 0x19, 0x8f, 0x3a, 0xbe, 0x9d, 0x4b, 0x84, 0xbc, 0x13, 0xf6, 0x99, 0x3d, 0x9b, 0x88, 0x44, 0x3e, 0xbf, 0x8e, 0x64, 0x3e, 0x6a, 0x42, 0x24, 0x3d, 0x01, 0xf0, 0x88, 0xbc, 0xc4, 0xe2, 0x1c, 0xbe, 0x5d, 0xc7, 0x12, 0x3e, 0x39, 0x0b, 0xff, 0xbd, 0x62, 0x4e, 0x64, 0x3d, 0xdb, 0x82, 0x43, 0xbe, 0x90, 0xbd, 0x02, 0xbe, 0x73, 0xd2, 0x13, 0x3e, 0x3d, 0x66, 0x8e, 0xbd, 0xfb, 0xf1, 0x7e, 0xbd, 0x75, 0xed, 0xd0, 0x3d, 0x67, 0x60, 0x84, 0x3c, 0x2f, 0x69, 0x0b, 0xbe, 0x86, 0x46, 0x2e, 0xbd, 0xac, 0xac, 0x54, 0xbe, 0x14, 0x20, 0x53, 0xbe, 0x2f, 0xd2, 0x5f, 0x3e, 0x82, 0xa6, 0x5d, 0x3e, 0x24, 0x8d, 0x1a, 0x3e, 0xf1, 0x50, 0x52, 0xbe, 0x0b, 0x62, 0x57, 0xbe, 0x84, 0x45, 0x3f, 0x3e, 0xba, 0x81, 0x02, 0xbe, 0x11, 0x9f, 0x08, 0xbd, 0x1f, 0x75, 0x48, 0x3e, 0xb6, 0xfc, 0x04, 0x3e, 0x79, 0x04, 0x3b, 0xbd, 0xa7, 0xa8, 0x22, 0x3d, 0xd4, 0xce, 0xb1, 0xbc, 0xc3, 0x51, 0x82, 0xbd, 0x1a, 0x95, 0x4d, 0x3e, 0x93, 0xa4, 0x8b, 0x3d, 0x8d, 0xfa, 0x27, 0xbe, 0xf0, 0x30, 0xce, 0x3d, 0xe2, 0xfb, 0x74, 0x3e, 0x45, 0x74, 0x86, 0xbd, 0xb5, 0x39, 0xfc, 0x3d, 0x1f, 0x61, 0xf4, 0x3d, 0x3e, 0x6e, 0x0b, 0x3c, 0x39, 0x78, 0x4c, 0xbe, 0xc4, 0x2a, 0x59, 0xbe, 0xa3, 0x8a, 0xe4, 0x3d, 0x37, 0xb5, 0x9b, 0x3c, 0xda, 0x45, 0x05, 0xbd, 0x1e, 0x99, 0x99, 0xbd, 0xa3, 0xeb, 0x8d, 0xbd, 0xd4, 0x57, 0x30, 0xbe, 0x28, 0x87, 0x0e, 0xbe, 0x39, 0xb3, 0x2b, 0xbe, 0x7a, 0x99, 0x2b, 0xbe, 0x79, 0xe8, 0x8c, 0x3d, 0xb9, 0x7c, 0x70, 0x3e, 0xa4, 0x82, 0xaa, 0xbd, 0xc9, 0x76, 0x9f, 0x3b, 0xa5, 0x30, 0x5d, 0x3e, 0x81, 0x99, 0xb2, 0x3b, 0x0c, 0xfd, 0xb9, 0x3a, 0xa6, 0xa9, 0x43, 0x3c, 0xa8, 0xa8, 0x08, 0xbe, 0xa5, 0x1b, 0x26, 0x3e, 0xfd, 0xe2, 0x44, 0xbd, 0xbc, 0x55, 0xa1, 0x3d, 0x7d, 0x46, 0xb3, 0x3d, 0x12, 0xaa, 0x2e, 0xbe, 0x37, 0xe7, 0x8e, 0x3d, 0x07, 0xc9, 0x3b, 0xbe, 0x9e, 0x08, 0x33, 0xbe, 0x00, 0x48, 0x08, 0xbe, 0x9a, 0x76, 0x2b, 0x3e, 0x07, 0x1d, 0x54, 0xbe, 0xaa, 0xe2, 0x25, 0x3d, 0x63, 0x7f, 0x1a, 0x3e, 0x67, 0xa9, 0x20, 0xbe, 0x50, 0x03, 0xe4, 0xbd, 0x19, 0x95, 0x48, 0xbe, 0x2c, 0xa0, 0xa0, 0x3d, 0x33, 0xec, 0x95, 0xbd, 0x29, 0x06, 0xa5, 0xbd, 0x26, 0xae, 0xd1, 0xbd, 0x11, 0x89, 0xac, 0xbd, 0x08, 0x5e, 0x8e, 0xbd, 0x76, 0xcb, 0x92, 0xbd, 0x65, 0xa4, 0xa2, 0x3d, 0x93, 0xdb, 0x33, 0x3c, 0x4e, 0xcd, 0x39, 0x3e, 0x4f, 0xf0, 0x1f, 0x3e, 0x77, 0x86, 0x09, 0x3e, 0x72, 0x68, 0x79, 0xbe, 0x99, 0xf3, 0x4c, 0xbe, 0xf6, 0x70, 0x83, 0x3d, 0x1e, 0x91, 0x96, 0xbd, 0xba, 0x1e, 0xb2, 0xba, 0x32, 0x9c, 0xef, 0x3d, 0x91, 0x29, 0x16, 0xbe, 0x3c, 0x87, 0x8e, 0x3d, 0x01, 0x1d, 0x18, 0xbb, 0x01, 0x36, 0x73, 0xbe, 0xb2, 0x7b, 0x1d, 0x3e, 0x7e, 0xe1, 0x09, 0x3e, 0xe1, 0x6d, 0x80, 0x3c, 0xc6, 0xb4, 0xbf, 0x3d, 0x29, 0xf6, 0x31, 0xbe, 0xb4, 0xfb, 0x67, 0xbe, 0x3a, 0x70, 0x44, 0xbe, 0x95, 0xb3, 0xe0, 0x3b, 0x14, 0xbe, 0x0c, 0x3e, 0xfa, 0x40, 0xba, 0x3d, 0xd6, 0x04, 0x09, 0x3d, 0x18, 0x26, 0xda, 0xbc, 0xbf, 0xbf, 0x61, 0x3e, 0x36, 0x08, 0x53, 0xbd, 0x84, 0xbf, 0x24, 0x3e, 0xad, 0x0e, 0x5a, 0x3d, 0x3e, 0x6e, 0x05, 0xbe, 0x1f, 0x2e, 0x4a, 0xbe, 0xf2, 0xd6, 0x67, 0x3e, 0xdf, 0x8f, 0x83, 0x3c, 0xa6, 0xd6, 0x81, 0xbc, 0xfd, 0xcc, 0x4c, 0x3e, 0x7b, 0xf3, 0x72, 0xbc, 0x07, 0x63, 0xe2, 0xbd, 0x0c, 0xf6, 0x50, 0xbc, 0x42, 0x87, 0x19, 0x3e, 0xa5, 0x2c, 0x42, 0x3d, 0x99, 0x25, 0x56, 0xbe, 0xe5, 0xd1, 0x49, 0xbe, 0xbb, 0x10, 0x81, 0xbd, 0x19, 0x33, 0x31, 0xbe, 0xf0, 0x63, 0x4a, 0xbe, 0x54, 0x51, 0x43, 0xbd, 0x5f, 0xc0, 0x96, 0x3d, 0xf7, 0x7d, 0x59, 0xbe, 0x68, 0xe8, 0x63, 0xbd, 0x89, 0x4f, 0x0f, 0xbe, 0x2c, 0xb3, 0x2a, 0x3e, 0x0b, 0x46, 0x47, 0xbe, 0xfd, 0x33, 0x0d, 0x3e, 0x45, 0x91, 0xd3, 0xbd, 0x7b, 0x8a, 0x60, 0xbe, 0x69, 0x3d, 0x5a, 0x3e, 0x73, 0x3c, 0xdb, 0x3d, 0x56, 0xab, 0x66, 0x3d, 0xb9, 0x23, 0x69, 0xbe, 0xbf, 0x91, 0x2e, 0xbd, 0xd0, 0x3f, 0x5f, 0xbe, 0xc9, 0x70, 0x25, 0x3e, 0xd3, 0xaf, 0xba, 0xbd, 0x77, 0x63, 0x59, 0x3e, 0x9d, 0xe1, 0x0f, 0x3e, 0xb9, 0xb1, 0x85, 0xbd, 0x33, 0x63, 0x24, 0x3c, 0x30, 0x11, 0x62, 0x3d, 0x8b, 0xd8, 0xda, 0xbd, 0x98, 0x71, 0x18, 0x3e, 0x29, 0x2b, 0xf7, 0x3d, 0x88, 0xfb, 0x00, 0xbd, 0x7c, 0xb3, 0x40, 0xbe, 0x6a, 0x35, 0x54, 0x3e, 0xea, 0x15, 0xfa, 0x3d, 0xa1, 0x5a, 0x29, 0x3e, 0x38, 0x74, 0x2e, 0x3e, 0xc4, 0xe5, 0xb9, 0xbd, 0xf2, 0xce, 0x1d, 0xbd, 0xeb, 0xdb, 0x0b, 0x3e, 0xc6, 0x64, 0x5d, 0xbe, 0xd2, 0x3f, 0xf1, 0x3d, 0xf9, 0x94, 0x54, 0x3e, 0x14, 0x1d, 0xc8, 0xbd, 0xc9, 0x06, 0x0d, 0x3e, 0x12, 0xdc, 0x71, 0x3d, 0x76, 0xcd, 0x44, 0xbd, 0x56, 0xf9, 0x8b, 0x3d, 0xd6, 0x25, 0x65, 0x3d, 0x77, 0x49, 0x3f, 0x3e, 0x1a, 0x42, 0x65, 0xbe, 0xcf, 0x2d, 0x3a, 0xbd, 0xc7, 0x59, 0x54, 0x3e, 0xe5, 0xa7, 0x06, 0xbe, 0xe9, 0x14, 0x3e, 0xbd, 0x1b, 0x44, 0x4c, 0x3e, 0xc5, 0xe7, 0x57, 0xbe, 0x85, 0x0a, 0x4f, 0x3d, 0xac, 0x1d, 0x1b, 0x3d, 0x6a, 0x50, 0xf7, 0xbd, 0x74, 0xb9, 0xa9, 0x3d, 0xe1, 0xdd, 0x4c, 0x3e, 0x00, 0x00, 0x00, 0x00, 0x00, 0x00, 0x00, 0x00, 0x00, 0x00, 0x00, 0x00, 0x3a, 0xfa, 0xff, 0xff, 0x04, 0x00, 0x00, 0x00, 0x80, 0x04, 0x00, 0x00, 0x66, 0x33, 0x47, 0xbe, 0xf6, 0x41, 0x2c, 0xbe, 0xe3, 0xae, 0x21, 0x3d, 0x5c, 0xeb, 0x84, 0xbd, 0x4b, 0xec, 0x1f, 0xbe, 0xfa, 0x7e, 0x13, 0x3e, 0x14, 0xf0, 0x05, 0xbe, 0xea, 0x05, 0xbe, 0x3d, 0xb9, 0x17, 0x11, 0x3e, 0x9e, 0x3e, 0x19, 0xbd, 0xef, 0xf8, 0x2f, 0x3e, 0xf1, 0x9a, 0x81, 0xbc, 0x2a, 0x33, 0x90, 0xbd, 0x31, 0xd6, 0xfd, 0xbc, 0xde, 0x16, 0x21, 0xbe, 0xea, 0x9f, 0xfa, 0x3d, 0x52, 0xa9, 0xfe, 0xbd, 0x71, 0x3a, 0xd9, 0x3d, 0xc7, 0xab, 0x2a, 0x3e, 0xc8, 0x55, 0x24, 0x3e, 0x2e, 0x35, 0x8c, 0x3c, 0x19, 0xf1, 0x26, 0xbe, 0x07, 0xa8, 0xe2, 0xbc, 0x9b, 0xb3, 0x4a, 0x3e, 0x06, 0x52, 0x88, 0xbd, 0xb7, 0x2a, 0x21, 0xbe, 0xbf, 0x40, 0xa3, 0x3d, 0x55, 0xaa, 0x8b, 0xbd, 0xe3, 0x49, 0x89, 0xbd, 0x84, 0xec, 0x6e, 0x3d, 0x65, 0x29, 0x1c, 0x3e, 0x71, 0x8a, 0x26, 0xbe, 0x0f, 0x7e, 0x28, 0xbd, 0xe7, 0x63, 0x0f, 0xbe, 0x4f, 0x21, 0xdd, 0xbc, 0xc6, 0x5b, 0x1f, 0xbe, 0x84, 0xcc, 0x8b, 0xbd, 0xcd, 0xa2, 0xff, 0x3d, 0xda, 0x77, 0xb7, 0x3d, 0xe3, 0xb2, 0xad, 0x3d, 0x42, 0x6f, 0xdb, 0xbd, 0x19, 0x34, 0x9f, 0xbc, 0xd3, 0x6e, 0x11, 0x3e, 0x13, 0xd8, 0x25, 0xbd, 0x16, 0x0f, 0x1f, 0xbe, 0xb2, 0x39, 0x8d, 0x3c, 0xb9, 0x02, 0x35, 0x3d, 0x5e, 0x1d, 0x12, 0xbe, 0x13, 0xee, 0x29, 0x3d, 0x80, 0xfe, 0x1f, 0xbe, 0xd4, 0xd4, 0xbd, 0xbd, 0x1d, 0x84, 0xc9, 0xbd, 0xad, 0x43, 0xd4, 0x3d, 0x50, 0xb6, 0x05, 0x3e, 0x2e, 0xf9, 0x66, 0x3d, 0x58, 0xf2, 0x4f, 0x3d, 0x30, 0x15, 0xa2, 0xbd, 0x3e, 0x75, 0x21, 0x3e, 0x2f, 0x3c, 0x3e, 0xbc, 0xd0, 0x32, 0xb9, 0xbd, 0x63, 0xc1, 0xd8, 0x3c, 0xfa, 0xb4, 0xde, 0x3b, 0x00, 0x03, 0x26, 0xbe, 0x30, 0x40, 0x16, 0x3e, 0xfa, 0x95, 0x38, 0xbe, 0x9d, 0xb5, 0xda, 0xbd, 0x78, 0x65, 0x65, 0x3d, 0x41, 0xcb, 0x80, 0x3b, 0x29, 0x4a, 0x3d, 0x3e, 0x8c, 0x89, 0x3c, 0x3c, 0x12, 0x80, 0xa8, 0xbd, 0xc6, 0x7f, 0xd6, 0xbd, 0x07, 0xb0, 0xb9, 0x3d, 0xf5, 0x8b, 0xa3, 0xbd, 0xc6, 0x6e, 0x83, 0xbd, 0x97, 0x01, 0x18, 0xbd, 0x75, 0x0d, 0x16, 0x3e, 0x9b, 0x81, 0x1d, 0x3e, 0xfb, 0x6e, 0x47, 0x3d, 0xd2, 0x42, 0x4a, 0x3e, 0x79, 0xa5, 0x15, 0x3e, 0x19, 0xe6, 0x11, 0x3e, 0x74, 0x2b, 0xf9, 0xbd, 0x00, 0xbf, 0xf5, 0xba, 0xad, 0x0c, 0x28, 0xbe, 0x11, 0x6b, 0x12, 0xbe, 0xdd, 0xa3, 0xd1, 0xbd, 0xca, 0x46, 0x7d, 0x3d, 0x4d, 0x27, 0x18, 0xbe, 0x95, 0x9e, 0x92, 0xbd, 0xb2, 0x2c, 0xe6, 0x3d, 0x52, 0x4f, 0x6a, 0x3d, 0x8a, 0xac, 0x99, 0xbc, 0x85, 0xfb, 0x45, 0xbd, 0x47, 0x9e, 0xa3, 0x3d, 0x8c, 0x35, 0x52, 0xbb, 0x2d, 0xa5, 0xb4, 0xbd, 0x74, 0x1e, 0x04, 0xbe, 0x89, 0xd5, 0x02, 0xbe, 0xa8, 0xa0, 0x49, 0x3d, 0x87, 0xea, 0x16, 0x3e, 0x54, 0xdf, 0xd6, 0x3d, 0x48, 0xfb, 0x23, 0x3e, 0x5c, 0x7f, 0x00, 0xbe, 0x6b, 0xd1, 0xed, 0xbd, 0xe0, 0x39, 0x48, 0x3e, 0x86, 0x99, 0xe0, 0x3d, 0x69, 0x66, 0x50, 0xbe, 0x70, 0x5b, 0x1d, 0xbb, 0x36, 0x90, 0x02, 0xbe, 0x51, 0x59, 0x04, 0xbd, 0x57, 0x98, 0x35, 0xbe, 0x5a, 0x56, 0x62, 0xbd, 0x75, 0x1f, 0xa4, 0x3d, 0x12, 0x0f, 0x15, 0x3d, 0xa1, 0x7b, 0x37, 0xbe, 0x97, 0x7a, 0xad, 0xbd, 0xf5, 0x4f, 0x5d, 0xbc, 0xce, 0xb5, 0x9a, 0x3d, 0xb6, 0xf6, 0x4c, 0x3e, 0x3d, 0x55, 0x45, 0x3d, 0x0d, 0x60, 0xb7, 0x3b, 0x3f, 0xa2, 0xfb, 0xbd, 0x7f, 0x9e, 0x08, 0x3e, 0x9d, 0xb3, 0x2c, 0x3c, 0x13, 0xb3, 0x1f, 0xbe, 0x46, 0x44, 0x49, 0x3e, 0x3f, 0xab, 0x29, 0xbe, 0x76, 0x62, 0x37, 0xbe, 0xbd, 0x7c, 0xbc, 0x3d, 0x6a, 0x18, 0x93, 0xbd, 0x75, 0xe5, 0x21, 0xbe, 0x0a, 0x04, 0xba, 0xbd, 0xdd, 0xa9, 0xab, 0x3d, 0x41, 0x37, 0xbc, 0xbd, 0xac, 0xf6, 0x28, 0xbd, 0x4e, 0x60, 0x92, 0xbd, 0xee, 0xbf, 0x35, 0xbe, 0xf9, 0x67, 0x4e, 0x3e, 0xb6, 0xba, 0xbb, 0x3d, 0x20, 0xa9, 0x87, 0xbc, 0xaf, 0x79, 0x0c, 0x3e, 0x3c, 0x06, 0x34, 0xbe, 0x3b, 0xfa, 0x51, 0x3e, 0x9a, 0x59, 0xd8, 0xbd, 0xb1, 0x89, 0x17, 0xbe, 0xf9, 0xb6, 0x1a, 0x3d, 0x6e, 0xa6, 0x21, 0x3c, 0x56, 0xa2, 0xa8, 0x3c, 0x92, 0xe2, 0xfa, 0x3d, 0x21, 0xe2, 0xa0, 0x3d, 0xd5, 0x35, 0xb9, 0xbd, 0x36, 0xd5, 0x39, 0xbe, 0x69, 0xab, 0x94, 0x3c, 0x81, 0x94, 0x25, 0xbd, 0xb5, 0xfa, 0x0c, 0x3e, 0x06, 0xed, 0xfc, 0xbd, 0x49, 0x00, 0x02, 0x3b, 0x75, 0xdb, 0x94, 0xbd, 0x17, 0x2d, 0xe8, 0x3c, 0x59, 0x95, 0xad, 0xbd, 0xae, 0xc8, 0xff, 0xbd, 0xe9, 0xc7, 0x71, 0x3d, 0x36, 0x48, 0x22, 0x3e, 0x74, 0x2e, 0xe7, 0xbd, 0x69, 0xf6, 0x1e, 0xbd, 0x1f, 0xb0, 0x1a, 0x3e, 0xa1, 0xa2, 0x35, 0xbe, 0xae, 0x88, 0xc5, 0x3d, 0xe4, 0x9a, 0x46, 0xbe, 0x76, 0x84, 0xf5, 0x3d, 0x74, 0x8f, 0x43, 0xbe, 0x17, 0x3f, 0xed, 0xbd, 0xf6, 0x02, 0x05, 0xbe, 0x8e, 0xaf, 0x2a, 0xbe, 0x6a, 0xe1, 0x44, 0x3e, 0x87, 0x69, 0x3b, 0xbe, 0x90, 0x44, 0x38, 0x3e, 0xe3, 0xf5, 0xb3, 0x3d, 0xa2, 0x05, 0x7a, 0xbd, 0xf4, 0x20, 0x23, 0xbd, 0x41, 0x1a, 0x66, 0x3d, 0x29, 0xfa, 0xa8, 0x3d, 0x79, 0xe9, 0x13, 0xbe, 0xa6, 0x17, 0x13, 0x3e, 0x7d, 0xe9, 0x1b, 0x3e, 0x14, 0xaf, 0x9f, 0xbc, 0x9f, 0x72, 0x63, 0x3d, 0x64, 0xee, 0xec, 0xbd, 0xe9, 0xf4, 0x48, 0x3d, 0x0c, 0x7d, 0xb4, 0x3c, 0x9f, 0xb5, 0x3b, 0xbc, 0x1d, 0x27, 0xea, 0x3b, 0xef, 0xb8, 0x29, 0x3e, 0x20, 0xae, 0x3e, 0x3e, 0x8a, 0xce, 0x35, 0xbe, 0xea, 0xfd, 0x2a, 0x3e, 0xaa, 0xc3, 0x15, 0xbe, 0xf6, 0xe7, 0x12, 0x3d, 0x64, 0xe1, 0x4e, 0xbb, 0x68, 0x92, 0xb7, 0x3d, 0xa8, 0xa2, 0x60, 0xbd, 0xd6, 0xbf, 0x38, 0x3e, 0x3b, 0xc5, 0xcb, 0xbd, 0x4e, 0xa9, 0x0b, 0xbd, 0x43, 0xdc, 0xb3, 0x3d, 0x9c, 0xa4, 0xff, 0x3d, 0xbe, 0x52, 0xd7, 0xbd, 0x07, 0x58, 0x96, 0x3d, 0x58, 0x38, 0x2d, 0x3e, 0x26, 0xa4, 0xbd, 0x3d, 0x50, 0xe0, 0x33, 0x3e, 0x04, 0x61, 0xf7, 0x3d, 0xb2, 0x38, 0x31, 0x3e, 0x67, 0x20, 0x4b, 0x3e, 0x44, 0x85, 0xd7, 0x3b, 0x55, 0xb3, 0x8f, 0x3d, 0xa1, 0x69, 0x49, 0xbe, 0x02, 0xc8, 0xa9, 0x3d, 0x7d, 0x9f, 0x0a, 0x3e, 0x12, 0x3f, 0x50, 0x3d, 0xfc, 0x53, 0x0f, 0x3c, 0x42, 0x20, 0xc7, 0x3c, 0xa3, 0xbb, 0x3e, 0xbd, 0x13, 0x39, 0x9d, 0xbd, 0xa0, 0x18, 0x85, 0x3d, 0x9f, 0x15, 0xba, 0x3b, 0xc9, 0xe2, 0x08, 0x3e, 0x91, 0xe5, 0x55, 0xbc, 0x0d, 0x97, 0x22, 0x3b, 0x18, 0xc3, 0x21, 0x3e, 0xea, 0x18, 0xdc, 0x3c, 0xff, 0xb1, 0x02, 0x3e, 0x48, 0x41, 0x3a, 0xbe, 0x4c, 0xdf, 0x54, 0xbe, 0xd4, 0xc7, 0x0a, 0xbe, 0x36, 0x29, 0xbc, 0xbd, 0xb6, 0x40, 0x32, 0x3e, 0x83, 0x68, 0x2e, 0xbe, 0x4d, 0xf1, 0x00, 0xbe, 0x34, 0x51, 0xc3, 0xbd, 0x54, 0xdc, 0x23, 0x3e, 0xa1, 0x53, 0x0e, 0x3d, 0x9e, 0xcc, 0x04, 0xbe, 0x89, 0x24, 0x33, 0xbe, 0xda, 0x05, 0x1e, 0xbc, 0x08, 0xee, 0x2b, 0x3e, 0x72, 0xb8, 0x5b, 0xbd, 0xce, 0x66, 0x4d, 0x3e, 0x82, 0x63, 0x27, 0x3e, 0xcf, 0xcd, 0xa4, 0xbd, 0x22, 0x9d, 0x01, 0xbd, 0x81, 0x54, 0x0e, 0xbe, 0x6a, 0xf2, 0x7f, 0xbd, 0xef, 0x62, 0x79, 0x3d, 0x50, 0x25, 0x12, 0x3e, 0xeb, 0x86, 0xa7, 0xbb, 0x74, 0x51, 0x4e, 0x3e, 0xb4, 0xd6, 0xfd, 0xbc, 0x75, 0x96, 0xb4, 0x3d, 0xa6, 0xca, 0x31, 0xbd, 0xef, 0xd0, 0x22, 0xbb, 0x09, 0x43, 0x74, 0xbb, 0xbc, 0x91, 0x76, 0xbd, 0xf1, 0xc8, 0x6d, 0xbd, 0x78, 0xb9, 0x8c, 0x3d, 0x40, 0x60, 0x8e, 0xbd, 0x86, 0xb2, 0xbd, 0x3c, 0x33, 0x13, 0xdc, 0x3c, 0x24, 0x69, 0xca, 0x3c, 0x5d, 0x6e, 0xbf, 0xbd, 0x8b, 0x85, 0x78, 0x3d, 0xe2, 0x65, 0x2a, 0x3e, 0xd4, 0x97, 0x6c, 0xbd, 0x74, 0xf1, 0x10, 0x3e, 0x63, 0x6b, 0xc5, 0x3c, 0x3f, 0xb5, 0x88, 0x3d, 0xbd, 0x34, 0xaa, 0xbd, 0x84, 0xe8, 0x00, 0xbe, 0xce, 0xcc, 0x34, 0xbe, 0x0e, 0x64, 0x23, 0xbe, 0xe7, 0x9c, 0xbe, 0x3d, 0xd7, 0x95, 0x43, 0xbe, 0x96, 0x29, 0x35, 0x3e, 0x6a, 0x17, 0x2f, 0x3d, 0xa6, 0x0f, 0xd9, 0xbd, 0xcc, 0x6c, 0x91, 0x3d, 0x3a, 0x4f, 0x3a, 0x3d, 0x00, 0x00, 0x00, 0x00, 0xca, 0xfe, 0xff, 0xff, 0x04, 0x00, 0x00, 0x00, 0x08, 0x00, 0x00, 0x00, 0xff, 0xff, 0xff, 0xff, 0x90, 0x00, 0x00, 0x00, 0x00, 0x00, 0x00, 0x00, 0x00, 0x00, 0x00, 0x00, 0x00, 0x00, 0x00, 0x00, 0xea, 0xfe, 0xff, 0xff, 0x04, 0x00, 0x00, 0x00, 0x08, 0x00, 0x00, 0x00, 0xfd, 0x3b, 0x4d, 0x3b, 0xff, 0x3b, 0x4d, 0xbb, 0x00, 0x00, 0x00, 0x00, 0x00, 0x00, 0x00, 0x00, 0x00, 0x00, 0x00, 0x00, 0x0a, 0xff, 0xff, 0xff, 0x04, 0x00, 0x00, 0x00, 0x0c, 0x00, 0x00, 0x00, 0x4d, 0x0e, 0x11, 0x3b, 0xc6, 0xfe, 0x8d, 0xbb, 0x49, 0xaa, 0x7c, 0xbb, 0x00, 0x00, 0x00, 0x00, 0x00, 0x00, 0x00, 0x00, 0x2a, 0xff, 0xff, 0xff, 0x04, 0x00, 0x00, 0x00, 0x28, 0x00, 0x00, 0x00, 0x70, 0xa1, 0xa9, 0x3b, 0x02, 0x4d, 0x9e, 0xbc, 0x79, 0x7b, 0x26, 0xbb, 0x1b, 0xca, 0x18, 0x3c, 0x57, 0xf4, 0xad, 0x3c, 0x40, 0xc8, 0xf3, 0x3c, 0x36, 0x71, 0x96, 0xbc, 0x60, 0x87, 0x82, 0x3c, 0x8a, 0x2f, 0x72, 0xbb, 0xfb, 0xcf, 0x99, 0xbb, 0x00, 0x00, 0x00, 0x00, 0x18, 0xf7, 0xff, 0xff, 0x00, 0x00, 0x00, 0x00, 0x00, 0x00, 0x00, 0x00, 0x00, 0x00, 0x00, 0x00, 0x28, 0xf7, 0xff, 0xff, 0x0f, 0x00, 0x00, 0x00, 0x4d, 0x4c, 0x49, 0x52, 0x20, 0x43, 0x6f, 0x6e, 0x76, 0x65, 0x72, 0x74, 0x65, 0x64, 0x2e, 0x00, 0x01, 0x00, 0x00, 0x00, 0x14, 0x00, 0x00, 0x00, 0x00, 0x00, 0x0e, 0x00, 0x18, 0x00, 0x04, 0x00, 0x08, 0x00, 0x0c, 0x00, 0x10, 0x00, 0x14, 0x00, 0x0e, 0x00, 0x00, 0x00, 0x30, 0x02, 0x00, 0x00, 0x24, 0x02, 0x00, 0x00, 0x18, 0x02, 0x00, 0x00, 0x14, 0x00, 0x00, 0x00, 0x04, 0x00, 0x00, 0x00, 0x04, 0x00, 0x00, 0x00, 0x6d, 0x61, 0x69, 0x6e, 0x00, 0x00, 0x00, 0x00, 0x07, 0x00, 0x00, 0x00, 0xb4, 0x01, 0x00, 0x00, 0x50, 0x01, 0x00, 0x00, 0x00, 0x01, 0x00, 0x00, 0xbc, 0x00, 0x00, 0x00, 0x84, 0x00, 0x00, 0x00, 0x40, 0x00, 0x00, 0x00, 0x04, 0x00, 0x00, 0x00, 0xd6, 0xfe, 0xff, 0xff, 0x00, 0x00, 0x00, 0x09, 0x04, 0x00, 0x00, 0x00, 0x24, 0x00, 0x00, 0x00, 0x18, 0x00, 0x00, 0x00, 0x0c, 0x00, 0x00, 0x00, 0x00, 0x00, 0x06, 0x00, 0x08, 0x00, 0x04, 0x00, 0x06, 0x00, 0x00, 0x00, 0x00, 0x00, 0x80, 0x3f, 0x01, 0x00, 0x00, 0x00, 0x0e, 0x00, 0x00, 0x00, 0x01, 0x00, 0x00, 0x00, 0x0d, 0x00, 0x00, 0x00, 0x9a, 0xff, 0xff, 0xff, 0x00, 0x00, 0x00, 0x08, 0x03, 0x00, 0x00, 0x00, 0x18, 0x00, 0x00, 0x00, 0x0c, 0x00, 0x00, 0x00, 0x04, 0x00, 0x00, 0x00, 0xec, 0xf7, 0xff, 0xff, 0x01, 0x00, 0x00, 0x00, 0x0d, 0x00, 0x00, 0x00, 0x03, 0x00, 0x00, 0x00, 0x0c, 0x00, 0x00, 0x00, 0x05, 0x00, 0x00, 0x00, 0x03, 0x00, 0x00, 0x00, 0x00, 0x00, 0x0a, 0x00, 0x10, 0x00, 0x04, 0x00, 0x08, 0x00, 0x0c, 0x00, 0x0a, 0x00, 0x00, 0x00, 0x02, 0x00, 0x00, 0x00, 0x10, 0x00, 0x00, 0x00, 0x04, 0x00, 0x00, 0x00, 0x01, 0x00, 0x00, 0x00, 0x0c, 0x00, 0x00, 0x00, 0x02, 0x00, 0x00, 0x00, 0x0b, 0x00, 0x00, 0x00, 0x04, 0x00, 0x00, 0x00, 0x00, 0x00, 0x0e, 0x00, 0x18, 0x00, 0x08, 0x00, 0x0c, 0x00, 0x10, 0x00, 0x07, 0x00, 0x14, 0x00, 0x0e, 0x00, 0x00, 0x00, 0x00, 0x00, 0x00, 0x05, 0x01, 0x00, 0x00, 0x00, 0x2c, 0x00, 0x00, 0x00, 0x20, 0x00, 0x00, 0x00, 0x04, 0x00, 0x00, 0x00, 0x72, 0xff, 0xff, 0xff, 0x00, 0x00, 0x00, 0x01, 0x02, 0x00, 0x00, 0x00, 0x02, 0x00, 0x00, 0x00, 0x02, 0x00, 0x00, 0x00, 0x02, 0x00, 0x00, 0x00, 0x01, 0x00, 0x00, 0x00, 0x0b, 0x00, 0x00, 0x00, 0x01, 0x00, 0x00, 0x00, 0x0a, 0x00, 0x00, 0x00, 0x62, 0xff, 0xff, 0xff, 0x00, 0x00, 0x00, 0x01, 0x24, 0x00, 0x00, 0x00, 0x18, 0x00, 0x00, 0x00, 0x04, 0x00, 0x00, 0x00, 0x54, 0xff, 0xff, 0xff, 0x00, 0x00, 0x01, 0x01, 0x01, 0x00, 0x00, 0x00, 0x01, 0x00, 0x00, 0x00, 0x01, 0x00, 0x00, 0x00, 0x0a, 0x00, 0x00, 0x00, 0x03, 0x00, 0x00, 0x00, 0x09, 0x00, 0x00, 0x00, 0x07, 0x00, 0x00, 0x00, 0x02, 0x00, 0x00, 0x00, 0x00, 0x00, 0x0e, 0x00, 0x1a, 0x00, 0x08, 0x00, 0x0c, 0x00, 0x10, 0x00, 0x07, 0x00, 0x14, 0x00, 0x0e, 0x00, 0x00, 0x00, 0x00, 0x00, 0x00, 0x05, 0x01, 0x00, 0x00, 0x00, 0x3c, 0x00, 0x00, 0x00, 0x30, 0x00, 0x00, 0x00, 0x14, 0x00, 0x00, 0x00, 0x00, 0x00, 0x0e, 0x00, 0x18, 0x00, 0x07, 0x00, 0x08, 0x00, 0x0c, 0x00, 0x10, 0x00, 0x14, 0x00, 0x0e, 0x00, 0x00, 0x00, 0x00, 0x00, 0x00, 0x01, 0x02, 0x00, 0x00, 0x00, 0x02, 0x00, 0x00, 0x00, 0x02, 0x00, 0x00, 0x00, 0x02, 0x00, 0x00, 0x00, 0x01, 0x00, 0x00, 0x00, 0x09, 0x00, 0x00, 0x00, 0x01, 0x00, 0x00, 0x00, 0x08, 0x00, 0x00, 0x00, 0x00, 0x00, 0x0e, 0x00, 0x14, 0x00, 0x00, 0x00, 0x08, 0x00, 0x0c, 0x00, 0x07, 0x00, 0x10, 0x00, 0x0e, 0x00, 0x00, 0x00, 0x00, 0x00, 0x00, 0x01, 0x30, 0x00, 0x00, 0x00, 0x24, 0x00, 0x00, 0x00, 0x10, 0x00, 0x00, 0x00, 0x0c, 0x00, 0x10, 0x00, 0x06, 0x00, 0x08, 0x00, 0x0c, 0x00, 0x07, 0x00, 0x0c, 0x00, 0x00, 0x00, 0x00, 0x00, 0x01, 0x01, 0x01, 0x00, 0x00, 0x00, 0x01, 0x00, 0x00, 0x00, 0x01, 0x00, 0x00, 0x00, 0x08, 0x00, 0x00, 0x00, 0x03, 0x00, 0x00, 0x00, 0x00, 0x00, 0x00, 0x00, 0x06, 0x00, 0x00, 0x00, 0x01, 0x00, 0x00, 0x00, 0x01, 0x00, 0x00, 0x00, 0x0e, 0x00, 0x00, 0x00, 0x01, 0x00, 0x00, 0x00, 0x00, 0x00, 0x00, 0x00, 0x0f, 0x00, 0x00, 0x00, 0x44, 0x06, 0x00, 0x00, 0xd0, 0x05, 0x00, 0x00, 0x60, 0x05, 0x00, 0x00, 0x00, 0x05, 0x00, 0x00, 0xb4, 0x04, 0x00, 0x00, 0x58, 0x04, 0x00, 0x00, 0x04, 0x04, 0x00, 0x00, 0xb0, 0x03, 0x00, 0x00, 0xd0, 0x02, 0x00, 0x00, 0x5c, 0x02, 0x00, 0x00, 0x7c, 0x01, 0x00, 0x00, 0x08, 0x01, 0x00, 0x00, 0xa8, 0x00, 0x00, 0x00, 0x4c, 0x00, 0x00, 0x00, 0x04, 0x00, 0x00, 0x00, 0x0c, 0xfa, 0xff, 0xff, 0x34, 0x00, 0x00, 0x00, 0x0f, 0x00, 0x00, 0x00, 0x1c, 0x00, 0x00, 0x00, 0x14, 0x00, 0x00, 0x00, 0x04, 0x00, 0x00, 0x00, 0x02, 0x00, 0x00, 0x00, 0xff, 0xff, 0xff, 0xff, 0x02, 0x00, 0x00, 0x00, 0xf0, 0xf9, 0xff, 0xff, 0x08, 0x00, 0x00, 0x00, 0x49, 0x64, 0x65, 0x6e, 0x74, 0x69, 0x74, 0x79, 0x00, 0x00, 0x00, 0x00, 0x02, 0x00, 0x00, 0x00, 0x01, 0x00, 0x00, 0x00, 0x02, 0x00, 0x00, 0x00, 0x50, 0xfa, 0xff, 0xff, 0x48, 0x00, 0x00, 0x00, 0x0e, 0x00, 0x00, 0x00, 0x1c, 0x00, 0x00, 0x00, 0x14, 0x00, 0x00, 0x00, 0x04, 0x00, 0x00, 0x00, 0x02, 0x00, 0x00, 0x00, 0xff, 0xff, 0xff, 0xff, 0x02, 0x00, 0x00, 0x00, 0x34, 0xfa, 0xff, 0xff, 0x1e, 0x00, 0x00, 0x00, 0x73, 0x65, 0x71, 0x75, 0x65, 0x6e, 0x74, 0x69, 0x61, 0x6c, 0x5f, 0x32, 0x30, 0x2f, 0x64, 0x65, 0x6e, 0x73, 0x65, 0x5f, 0x31, 0x39, 0x2f, 0x42, 0x69, 0x61, 0x73, 0x41, 0x64, 0x64, 0x00, 0x00, 0x02, 0x00, 0x00, 0x00, 0x01, 0x00, 0x00, 0x00, 0x02, 0x00, 0x00, 0x00, 0xa8, 0xfa, 0xff, 0xff, 0x4c, 0x00, 0x00, 0x00, 0x0d, 0x00, 0x00, 0x00, 0x1c, 0x00, 0x00, 0x00, 0x14, 0x00, 0x00, 0x00, 0x04, 0x00, 0x00, 0x00, 0x02, 0x00, 0x00, 0x00, 0xff, 0xff, 0xff, 0xff, 0x90, 0x00, 0x00, 0x00, 0x8c, 0xfa, 0xff, 0xff, 0x20, 0x00, 0x00, 0x00, 0x73, 0x65, 0x71, 0x75, 0x65, 0x6e, 0x74, 0x69, 0x61, 0x6c, 0x5f, 0x32, 0x30, 0x2f, 0x66, 0x6c, 0x61, 0x74, 0x74, 0x65, 0x6e, 0x5f, 0x31, 0x39, 0x2f, 0x52, 0x65, 0x73, 0x68, 0x61, 0x70, 0x65, 0x00, 0x00, 0x00, 0x00, 0x02, 0x00, 0x00, 0x00, 0x01, 0x00, 0x00, 0x00, 0x90, 0x00, 0x00, 0x00, 0x04, 0xfb, 0xff, 0xff, 0x58, 0x00, 0x00, 0x00, 0x0c, 0x00, 0x00, 0x00, 0x24, 0x00, 0x00, 0x00, 0x1c, 0x00, 0x00, 0x00, 0x04, 0x00, 0x00, 0x00, 0x04, 0x00, 0x00, 0x00, 0xff, 0xff, 0xff, 0xff, 0x06, 0x00, 0x00, 0x00, 0x08, 0x00, 0x00, 0x00, 0x03, 0x00, 0x00, 0x00, 0xf0, 0xfa, 0xff, 0xff, 0x26, 0x00, 0x00, 0x00, 0x73, 0x65, 0x71, 0x75, 0x65, 0x6e, 0x74, 0x69, 0x61, 0x6c, 0x5f, 0x32, 0x30, 0x2f, 0x6d, 0x61, 0x78, 0x5f, 0x70, 0x6f, 0x6f, 0x6c, 0x69, 0x6e, 0x67, 0x32, 0x64, 0x5f, 0x32, 0x36, 0x2f, 0x4d, 0x61, 0x78, 0x50, 0x6f, 0x6f, 0x6c, 0x00, 0x00, 0x04, 0x00, 0x00, 0x00, 0x01, 0x00, 0x00, 0x00, 0x06, 0x00, 0x00, 0x00, 0x08, 0x00, 0x00, 0x00, 0x03, 0x00, 0x00, 0x00, 0x74, 0xfb, 0xff, 0xff, 0xc4, 0x00, 0x00, 0x00, 0x0b, 0x00, 0x00, 0x00, 0x24, 0x00, 0x00, 0x00, 0x1c, 0x00, 0x00, 0x00, 0x04, 0x00, 0x00, 0x00, 0x04, 0x00, 0x00, 0x00, 0xff, 0xff, 0xff, 0xff, 0x0c, 0x00, 0x00, 0x00, 0x11, 0x00, 0x00, 0x00, 0x03, 0x00, 0x00, 0x00, 0x60, 0xfb, 0xff, 0xff, 0x93, 0x00, 0x00, 0x00, 0x73, 0x65, 0x71, 0x75, 0x65, 0x6e, 0x74, 0x69, 0x61, 0x6c, 0x5f, 0x32, 0x30, 0x2f, 0x63, 0x6f, 0x6e, 0x76, 0x32, 0x64, 0x5f, 0x32, 0x38, 0x2f, 0x52, 0x65, 0x6c, 0x75, 0x3b, 0x73, 0x65, 0x71, 0x75, 0x65, 0x6e, 0x74, 0x69, 0x61, 0x6c, 0x5f, 0x32, 0x30, 0x2f, 0x63, 0x6f, 0x6e, 0x76, 0x32, 0x64, 0x5f, 0x32, 0x38, 0x2f, 0x42, 0x69, 0x61, 0x73, 0x41, 0x64, 0x64, 0x3b, 0x73, 0x65, 0x71, 0x75, 0x65, 0x6e, 0x74, 0x69, 0x61, 0x6c, 0x5f, 0x32, 0x30, 0x2f, 0x63, 0x6f, 0x6e, 0x76, 0x32, 0x64, 0x5f, 0x32, 0x38, 0x2f, 0x43, 0x6f, 0x6e, 0x76, 0x32, 0x44, 0x3b, 0x73, 0x65, 0x71, 0x75, 0x65, 0x6e, 0x74, 0x69, 0x61, 0x6c, 0x5f, 0x32, 0x30, 0x2f, 0x63, 0x6f, 0x6e, 0x76, 0x32, 0x64, 0x5f, 0x32, 0x38, 0x2f, 0x42, 0x69, 0x61, 0x73, 0x41, 0x64, 0x64, 0x2f, 0x52, 0x65, 0x61, 0x64, 0x56, 0x61, 0x72, 0x69, 0x61, 0x62, 0x6c, 0x65, 0x4f, 0x70, 0x2f, 0x72, 0x65, 0x73, 0x6f, 0x75, 0x72, 0x63, 0x65, 0x00, 0x04, 0x00, 0x00, 0x00, 0x01, 0x00, 0x00, 0x00, 0x0c, 0x00, 0x00, 0x00, 0x11, 0x00, 0x00, 0x00, 0x03, 0x00, 0x00, 0x00, 0x50, 0xfc, 0xff, 0xff, 0x58, 0x00, 0x00, 0x00, 0x0a, 0x00, 0x00, 0x00, 0x24, 0x00, 0x00, 0x00, 0x1c, 0x00, 0x00, 0x00, 0x04, 0x00, 0x00, 0x00, 0x04, 0x00, 0x00, 0x00, 0xff, 0xff, 0xff, 0xff, 0x0e, 0x00, 0x00, 0x00, 0x13, 0x00, 0x00, 0x00, 0x0a, 0x00, 0x00, 0x00, 0x3c, 0xfc, 0xff, 0xff, 0x26, 0x00, 0x00, 0x00, 0x73, 0x65, 0x71, 0x75, 0x65, 0x6e, 0x74, 0x69, 0x61, 0x6c, 0x5f, 0x32, 0x30, 0x2f, 0x6d, 0x61, 0x78, 0x5f, 0x70, 0x6f, 0x6f, 0x6c, 0x69, 0x6e, 0x67, 0x32, 0x64, 0x5f, 0x32, 0x35, 0x2f, 0x4d, 0x61, 0x78, 0x50, 0x6f, 0x6f, 0x6c, 0x00, 0x00, 0x04, 0x00, 0x00, 0x00, 0x01, 0x00, 0x00, 0x00, 0x0e, 0x00, 0x00, 0x00, 0x13, 0x00, 0x00, 0x00, 0x0a, 0x00, 0x00, 0x00, 0xc0, 0xfc, 0xff, 0xff, 0xc4, 0x00, 0x00, 0x00, 0x09, 0x00, 0x00, 0x00, 0x24, 0x00, 0x00, 0x00, 0x1c, 0x00, 0x00, 0x00, 0x04, 0x00, 0x00, 0x00, 0x04, 0x00, 0x00, 0x00, 0xff, 0xff, 0xff, 0xff, 0x1c, 0x00, 0x00, 0x00, 0x26, 0x00, 0x00, 0x00, 0x0a, 0x00, 0x00, 0x00, 0xac, 0xfc, 0xff, 0xff, 0x93, 0x00, 0x00, 0x00, 0x73, 0x65, 0x71, 0x75, 0x65, 0x6e, 0x74, 0x69, 0x61, 0x6c, 0x5f, 0x32, 0x30, 0x2f, 0x63, 0x6f, 0x6e, 0x76, 0x32, 0x64, 0x5f, 0x32, 0x37, 0x2f, 0x52, 0x65, 0x6c, 0x75, 0x3b, 0x73, 0x65, 0x71, 0x75, 0x65, 0x6e, 0x74, 0x69, 0x61, 0x6c, 0x5f, 0x32, 0x30, 0x2f, 0x63, 0x6f, 0x6e, 0x76, 0x32, 0x64, 0x5f, 0x32, 0x37, 0x2f, 0x42, 0x69, 0x61, 0x73, 0x41, 0x64, 0x64, 0x3b, 0x73, 0x65, 0x71, 0x75, 0x65, 0x6e, 0x74, 0x69, 0x61, 0x6c, 0x5f, 0x32, 0x30, 0x2f, 0x63, 0x6f, 0x6e, 0x76, 0x32, 0x64, 0x5f, 0x32, 0x37, 0x2f, 0x43, 0x6f, 0x6e, 0x76, 0x32, 0x44, 0x3b, 0x73, 0x65, 0x71, 0x75, 0x65, 0x6e, 0x74, 0x69, 0x61, 0x6c, 0x5f, 0x32, 0x30, 0x2f, 0x63, 0x6f, 0x6e, 0x76, 0x32, 0x64, 0x5f, 0x32, 0x37, 0x2f, 0x42, 0x69, 0x61, 0x73, 0x41, 0x64, 0x64, 0x2f, 0x52, 0x65, 0x61, 0x64, 0x56, 0x61, 0x72, 0x69, 0x61, 0x62, 0x6c, 0x65, 0x4f, 0x70, 0x2f, 0x72, 0x65, 0x73, 0x6f, 0x75, 0x72, 0x63, 0x65, 0x00, 0x04, 0x00, 0x00, 0x00, 0x01, 0x00, 0x00, 0x00, 0x1c, 0x00, 0x00, 0x00, 0x26, 0x00, 0x00, 0x00, 0x0a, 0x00, 0x00, 0x00, 0x06, 0xfe, 0xff, 0xff, 0x38, 0x00, 0x00, 0x00, 0x08, 0x00, 0x00, 0x00, 0x0c, 0x00, 0x00, 0x00, 0x04, 0x00, 0x00, 0x00, 0x70, 0xfd, 0xff, 0xff, 0x1e, 0x00, 0x00, 0x00, 0x73, 0x65, 0x71, 0x75, 0x65, 0x6e, 0x74, 0x69, 0x61, 0x6c, 0x5f, 0x32, 0x30, 0x2f, 0x63, 0x6f, 0x6e, 0x76, 0x32, 0x64, 0x5f, 0x32, 0x38, 0x2f, 0x43, 0x6f, 0x6e, 0x76, 0x32, 0x44, 0x00, 0x00, 0x04, 0x00, 0x00, 0x00, 0x03, 0x00, 0x00, 0x00, 0x03, 0x00, 0x00, 0x00, 0x03, 0x00, 0x00, 0x00, 0x0a, 0x00, 0x00, 0x00, 0x56, 0xfe, 0xff, 0xff, 0x38, 0x00, 0x00, 0x00, 0x07, 0x00, 0x00, 0x00, 0x0c, 0x00, 0x00, 0x00, 0x04, 0x00, 0x00, 0x00, 0xc0, 0xfd, 0xff, 0xff, 0x1e, 0x00, 0x00, 0x00, 0x73, 0x65, 0x71, 0x75, 0x65, 0x6e, 0x74, 0x69, 0x61, 0x6c, 0x5f, 0x32, 0x30, 0x2f, 0x63, 0x6f, 0x6e, 0x76, 0x32, 0x64, 0x5f, 0x32, 0x37, 0x2f, 0x43, 0x6f, 0x6e, 0x76, 0x32, 0x44, 0x00, 0x00, 0x04, 0x00, 0x00, 0x00, 0x0a, 0x00, 0x00, 0x00, 0x03, 0x00, 0x00, 0x00, 0x03, 0x00, 0x00, 0x00, 0x03, 0x00, 0x00, 0x00, 0xa6, 0xfe, 0xff, 0xff, 0x38, 0x00, 0x00, 0x00, 0x06, 0x00, 0x00, 0x00, 0x0c, 0x00, 0x00, 0x00, 0x04, 0x00, 0x00, 0x00, 0x10, 0xfe, 0xff, 0xff, 0x1d, 0x00, 0x00, 0x00, 0x73, 0x65, 0x71, 0x75, 0x65, 0x6e, 0x74, 0x69, 0x61, 0x6c, 0x5f, 0x32, 0x30, 0x2f, 0x64, 0x65, 0x6e, 0x73, 0x65, 0x5f, 0x31, 0x39, 0x2f, 0x4d, 0x61, 0x74, 0x4d, 0x75, 0x6c, 0x00, 0x00, 0x00, 0x02, 0x00, 0x00, 0x00, 0x02, 0x00, 0x00, 0x00, 0x90, 0x00, 0x00, 0x00, 0x00, 0x00, 0x0e, 0x00, 0x18, 0x00, 0x08, 0x00, 0x07, 0x00, 0x0c, 0x00, 0x10, 0x00, 0x14, 0x00, 0x0e, 0x00, 0x00, 0x00, 0x00, 0x00, 0x00, 0x02, 0x38, 0x00, 0x00, 0x00, 0x05, 0x00, 0x00, 0x00, 0x0c, 0x00, 0x00, 0x00, 0x04, 0x00, 0x00, 0x00, 0x6c, 0xfe, 0xff, 0xff, 0x1e, 0x00, 0x00, 0x00, 0x73, 0x65, 0x71, 0x75, 0x65, 0x6e, 0x74, 0x69, 0x61, 0x6c, 0x5f, 0x32, 0x30, 0x2f, 0x66, 0x6c, 0x61, 0x74, 0x74, 0x65, 0x6e, 0x5f, 0x31, 0x39, 0x2f, 0x43, 0x6f, 0x6e, 0x73, 0x74, 0x00, 0x00, 0x01, 0x00, 0x00, 0x00, 0x02, 0x00, 0x00, 0x00, 0x46, 0xff, 0xff, 0xff, 0x50, 0x00, 0x00, 0x00, 0x04, 0x00, 0x00, 0x00, 0x0c, 0x00, 0x00, 0x00, 0x04, 0x00, 0x00, 0x00, 0xb0, 0xfe, 0xff, 0xff, 0x36, 0x00, 0x00, 0x00, 0x73, 0x65, 0x71, 0x75, 0x65, 0x6e, 0x74, 0x69, 0x61, 0x6c, 0x5f, 0x32, 0x30, 0x2f, 0x64, 0x65, 0x6e, 0x73, 0x65, 0x5f, 0x31, 0x39, 0x2f, 0x42, 0x69, 0x61, 0x73, 0x41, 0x64, 0x64, 0x2f, 0x52, 0x65, 0x61, 0x64, 0x56, 0x61, 0x72, 0x69, 0x61, 0x62, 0x6c, 0x65, 0x4f, 0x70, 0x2f, 0x72, 0x65, 0x73, 0x6f, 0x75, 0x72, 0x63, 0x65, 0x00, 0x00, 0x01, 0x00, 0x00, 0x00, 0x02, 0x00, 0x00, 0x00, 0xa2, 0xff, 0xff, 0xff, 0x50, 0x00, 0x00, 0x00, 0x03, 0x00, 0x00, 0x00, 0x0c, 0x00, 0x00, 0x00, 0x04, 0x00, 0x00, 0x00, 0x0c, 0xff, 0xff, 0xff, 0x37, 0x00, 0x00, 0x00, 0x73, 0x65, 0x71, 0x75, 0x65, 0x6e, 0x74, 0x69, 0x61, 0x6c, 0x5f, 0x32, 0x30, 0x2f, 0x63, 0x6f, 0x6e, 0x76, 0x32, 0x64, 0x5f, 0x32, 0x38, 0x2f, 0x42, 0x69, 0x61, 0x73, 0x41, 0x64, 0x64, 0x2f, 0x52, 0x65, 0x61, 0x64, 0x56, 0x61, 0x72, 0x69, 0x61, 0x62, 0x6c, 0x65, 0x4f, 0x70, 0x2f, 0x72, 0x65, 0x73, 0x6f, 0x75, 0x72, 0x63, 0x65, 0x00, 0x01, 0x00, 0x00, 0x00, 0x03, 0x00, 0x00, 0x00, 0x00, 0x00, 0x0e, 0x00, 0x14, 0x00, 0x04, 0x00, 0x00, 0x00, 0x08, 0x00, 0x0c, 0x00, 0x10, 0x00, 0x0e, 0x00, 0x00, 0x00, 0x50, 0x00, 0x00, 0x00, 0x02, 0x00, 0x00, 0x00, 0x0c, 0x00, 0x00, 0x00, 0x04, 0x00, 0x00, 0x00, 0x78, 0xff, 0xff, 0xff, 0x37, 0x00, 0x00, 0x00, 0x73, 0x65, 0x71, 0x75, 0x65, 0x6e, 0x74, 0x69, 0x61, 0x6c, 0x5f, 0x32, 0x30, 0x2f, 0x63, 0x6f, 0x6e, 0x76, 0x32, 0x64, 0x5f, 0x32, 0x37, 0x2f, 0x42, 0x69, 0x61, 0x73, 0x41, 0x64, 0x64, 0x2f, 0x52, 0x65, 0x61, 0x64, 0x56, 0x61, 0x72, 0x69, 0x61, 0x62, 0x6c, 0x65, 0x4f, 0x70, 0x2f, 0x72, 0x65, 0x73, 0x6f, 0x75, 0x72, 0x63, 0x65, 0x00, 0x01, 0x00, 0x00, 0x00, 0x0a, 0x00, 0x00, 0x00, 0x14, 0x00, 0x18, 0x00, 0x04, 0x00, 0x00, 0x00, 0x08, 0x00, 0x0c, 0x00, 0x10, 0x00, 0x00, 0x00, 0x00, 0x00, 0x14, 0x00, 0x14, 0x00, 0x00, 0x00, 0x44, 0x00, 0x00, 0x00, 0x01, 0x00, 0x00, 0x00, 0x28, 0x00, 0x00, 0x00, 0x20, 0x00, 0x00, 0x00, 0x04, 0x00, 0x00, 0x00, 0x04, 0x00, 0x00, 0x00, 0xff, 0xff, 0xff, 0xff, 0x1e, 0x00, 0x00, 0x00, 0x28, 0x00, 0x00, 0x00, 0x03, 0x00, 0x00, 0x00, 0x04, 0x00, 0x04, 0x00, 0x04, 0x00, 0x00, 0x00, 0x0f, 0x00, 0x00, 0x00, 0x63, 0x6f, 0x6e, 0x76, 0x32, 0x64, 0x5f, 0x32, 0x37, 0x5f, 0x69, 0x6e, 0x70, 0x75, 0x74, 0x00, 0x04, 0x00, 0x00, 0x00, 0x01, 0x00, 0x00, 0x00, 0x1e, 0x00, 0x00, 0x00, 0x28, 0x00, 0x00, 0x00, 0x03, 0x00, 0x00, 0x00, 0x05, 0x00, 0x00, 0x00, 0x4c, 0x00, 0x00, 0x00, 0x38, 0x00, 0x00, 0x00, 0x28, 0x00, 0x00, 0x00, 0x18, 0x00, 0x00, 0x00, 0x0c, 0x00, 0x00, 0x00, 0x00, 0x00, 0x06, 0x00, 0x08, 0x00, 0x07, 0x00, 0x06, 0x00, 0x00, 0x00, 0x00, 0x00, 0x00, 0x19, 0xe2, 0xff, 0xff, 0xff, 0x00, 0x00, 0x00, 0x09, 0x03, 0x00, 0x00, 0x00, 0xfa, 0xff, 0xff, 0xff, 0x00, 0x16, 0x06, 0x00, 0x06, 0x00, 0x05, 0x00, 0x06, 0x00, 0x00, 0x00, 0x00, 0x11, 0x0a, 0x00, 0x0c, 0x00, 0x07, 0x00, 0x00, 0x00, 0x08, 0x00, 0x0a, 0x00, 0x00, 0x00, 0x00, 0x00, 0x00, 0x03, 0x02, 0x00, 0x00, 0x00};
const int model_data_len = 6272;